{"vocab_size": 2000, "merges": [["h", "e"], ["t", "he"], ["i", "n"], ["a", "n"], ["e", "r"], ["o", "u"], ["a", "t"], ["e", "d"], ["o", "n"], ["a", "r"], ["a", "s"], ["t", "o"], ["i", "t"], ["i", "d"], ["in", "g"], ["an", "d"], ["e", "n"], ["o", "r"], ["s", "a"], ["c", "e"], ["t", "h"], ["l", "i"], ["r", "e"], ["sa", "id"], ["l", "l"], ["o", "f"], ["l", "e"], ["i", "s"], ["w", "as"], ["s", "e"], ["a", "d"], ["A", "li"], ["Ali", "ce"], [",", "\u201d"], ["o", "w"], ["l", "y"], ["r", "y"], ["T", "he"], ["s", "t"], ["l", "d"], ["m", "e"], ["c", "h"], ["b", "e"], ["o", "o"], ["v", "er"], ["s", "he"], ["y", "ou"], ["a", "ll"], ["u", "r"], ["u", "t"], ["g", "h"], ["en", "t"], ["h", "ad"], ["t", "er"], ["r", "i"], ["a", "l"], ["!", "\u201d"], ["H", "ar"], ["a", "g"], ["o", "t"], ["p", "e"], ["e", "s"], ["he", "r"], ["th", "at"], ["w", "h"], ["s", "o"], ["on", "e"], ["?", "\u201d"], ["i", "r"], ["v", "e"], ["the", "r"], ["gh", "t"], ["Har", "ry"], ["f", "or"], ["k", "ed"], ["ou", "t"], ["ver", "y"], ["h", "is"], ["\u2019", "s"], ["n", "d"], ["r", "o"], ["w", "it"], ["s", "h"], ["\u2019", "t"], ["a", "in"], ["or", "t"], ["e", "m"], ["i", "m"], ["i", "on"], ["k", "e"], ["u", "e"], ["a", "c"], ["ar", "d"], ["ou", "ld"], ["wit", "h"], ["s", "."], ["a", "y"], ["d", "o"], ["the", "y"], ["t", "le"], ["o", "ld"], ["n", "e"], ["a", "b"], ["u", "p"], ["l", "oo"], ["an", "t"], ["g", "e"], ["th", "ing"], ["ar", "t"], ["f", "e"], ["W", "h"], ["ou", "se"], ["n", "ot"], ["i", "ll"], ["k", "ing"], ["ow", "n"], ["j", "u"], ["K", "ing"], ["G", "ry"], ["u", "n"], ["u", "s"], ["Alice", "."], ["p", "p"], ["f", "in"], ["wh", "o"], ["C", "at"], ["ag", "ain"], ["b", "ut"], ["i", "f"], ["c", "t"], ["be", "g"], ["a", "m"], ["p", "h"], ["p", "o"], ["ou", "r"], ["c", "k"], ["i", "l"], ["at", "ter"], ["Q", "ue"], ["Que", "en"], ["o", "ther"], ["d", "own"], ["H", "o"], ["Ho", "g"], ["Hog", "w"], ["Hogw", "art"], ["se", "l"], ["i", "ce"], ["of", "f"], ["ou", "ght"], ["er", "s"], ["n", "o"], ["a", "ve"], ["sel", "f"], ["er", "e"], ["c", "a"], ["the", "ir"], ["H", "atter"], ["V", "old"], ["Vold", "em"], ["Voldem", "ort"], ["o", "m"], ["ou", "nd"], ["l", "o"], ["w", "he"], ["n", "ow"], ["c", "ould"], ["e", "x"], ["so", "me"], ["th", "is"], ["t", "ur"], ["ri", "ed"], ["I", "t"], ["in", "to"], ["s", "s"], ["t", "i"], ["ly", "."], ["e", "a"], ["c", "he"], ["Alice", ","], ["i", "z"], ["w", "or"], ["b", "y"], ["he", "ad"], ["s", "pe"], ["it", "e"], ["you", "r"], ["tur", "n"], ["d", "id"], ["re", "at"], ["u", "m"], ["n", "\u2019t"], ["Gry", "ph"], ["Gryph", "on"], ["c", "on"], ["r", "a"], ["d", "e"], ["A", "nd"], ["m", "u"], ["d", "on"], ["wh", "at"], ["an", "y"], ["v", "o"], ["er", "p"], ["M", "ar"], ["t", "w"], ["M", "o"], ["iz", "ard"], ["s", "id"], ["in", "k"], ["w", "ere"], ["th", "ought"], ["b", "o"], ["q", "u"], ["vo", "ice"], ["ed", "."], ["ro", "m"], ["Cat", "erp"], ["Caterp", "ill"], ["Caterpill", "ar"], ["ou", "s"], ["e", "."], ["T", "ur"], ["w", "ent"], ["fin", "d"], ["p", "l"], ["g", "o"], ["the", "m"], ["don", "\u2019t"], ["on", "g"], ["as", "ked"], ["re", "e"], ["or", "m"], ["Mo", "ck"], ["Tur", "tle"], ["w", "izard"], ["a", "f"], ["ge", "t"], ["w", "ay"], ["her", "self"], ["Wh", "at"], ["sa", "y"], ["an", "g"], ["p", "le"], ["I", "\u2019"], ["Mar", "ch"], ["D", "orm"], ["Dorm", "ouse"], ["u", "l"], ["li", "ke"], ["e", "p"], ["e", "ll"], ["whe", "n"], ["en", "d"], ["or", "e"], ["to", "o"], ["t", "a"], ["it", "s"], ["g", "r"], ["loo", "ked"], ["y", "."], ["i", "c"], ["ti", "me"], ["se", "e"], ["f", "rom"], ["th", "ree"], ["v", "en"], ["Hogwart", "s"], ["id", "d"], ["m", "ar"], ["m", "i"], ["oo", "t"], ["l", "it"], ["lit", "tle"], ["B", "ut"], ["c", "our"], ["ar", "e"], ["im", "p"], ["Y", "ou"], ["h", "a"], ["f", "ir"], ["fir", "st"], ["m", "in"], ["d", "ay"], ["h", "im"], ["t", "one"], ["w", "and"], ["ju", "ry"], ["h", "ow"], ["d", "i"], ["ab", "out"], ["e", "t"], ["loo", "king"], ["l", "ed"], ["k", "now"], ["e", "l"], ["The", "n"], ["h", "at"], ["p", "er"], ["ac", "k"], ["ly", ","], ["t", "ing"], ["in", "n"], ["h", "ouse"], ["i", "ous"], ["af", "ter"], ["again", "."], ["b", "it"], ["s", "u"], ["th", "ink"], ["le", ","], ["w", "ould"], ["e", "ar"], ["beg", "an"], ["c", "om"], ["p", "u"], ["re", "p"], ["o", "me"], ["the", "re"], ["at", "ion"], ["ca", "me"], ["ju", "st"], ["f", "a"], ["Gry", "f"], ["Gryf", "find"], ["Gryffind", "or"], ["i", "ght"], ["for", "e"], ["do", "or"], ["r", "ound"], ["be", "en"], ["d", "er"], ["e", "ver"], ["as", "t"], ["l", "a"], ["he", "d"], ["mu", "ch"], ["ou", "gh"], ["p", "ro"], ["s", ","], ["a", "k"], ["me", "an"], ["d", "ed"], ["wh", "i"], ["W", "e"], ["ow", "ed"], ["c", "all"], ["oo", "k"], ["turn", "ed"], ["b", "er"], ["T", "hat"], ["t", "r"], ["l", "ow"], ["at", "h"], ["a", "p"], ["i", "g"], ["as", "le"], ["v", "ed"], ["it", "ch"], ["Hogwart", "s."], ["n", "am"], ["m", "om"], ["mom", "ent"], ["the", "n"], ["sid", "e"], ["e", "very"], ["ac", "t"], ["se", "em"], ["m", "ore"], ["q", "ue"], ["al", "f"], ["qu", "ite"], ["ad", "ded"], ["on", "ly"], ["f", "u"], ["fu", "ll"], ["oo", "d"], ["ce", "."], ["Caterpillar", "."], ["ri", "ght"], ["w", "r"], ["m", "o"], ["c", "ur"], ["s", "it"], ["ed", ","], ["g", "reat"], ["m", "ad"], ["re", "mar"], ["p", "r"], ["c", "ut"], ["c", "an"], ["es", "s"], ["e", "st"], ["at", "ed"], ["imp", "ort"], ["import", "ant"], ["e", "ath"], ["ne", "ver"], ["d", "en"], ["s", "to"], ["H", "ow"], ["m", "an"], ["it", "."], ["p", "re"], ["h", "ur"], ["l", "ong"], ["and", ","], ["bo", "d"], ["bod", "y"], ["asked", "."], ["p", "ut"], ["i", "ly"], ["l", "t"], ["g", "ot"], ["h", "ave"], ["rep", "li"], ["c", "ried"], ["call", "ed"], ["ple", "as"], ["u", "re"], ["ag", "ic"], ["ha", "pp"], ["m", "a"], ["g", "ood"], ["s", "il"], ["t", "al"], ["I\u2019", "m"], ["ou", "p"], ["Har", "e."], ["Hatter", "."], ["H", "e"], ["ar", "m"], ["ac", "le"], ["tw", "o"], ["e", "ven"], ["che", "ss"], ["a", "me"], ["Gryphon", "."], ["r", "on"], ["We", "asle"], ["Weasle", "y"], ["D", "eath"], ["it", ","], ["be", "fore"], ["w", "on"], ["in", "e"], ["y", ","], ["fin", "is"], ["ag", "e"], ["loo", "k"], ["r", "u"], ["ne", "ar"], ["too", "k"], ["e", "y"], ["\u201c", "I"], ["wor", "d"], ["a", "u"], ["w", "ant"], ["p", "a"], ["el", "se"], ["seem", "ed"], ["es", "."], ["on", ","], ["turn", "ing"], ["o", "ver"], ["he", "re"], ["ing", "."], ["b", "ack"], ["es", ","], ["min", "ut"], ["voice", "."], ["Wh", "o"], ["thing", "s"], ["beg", "inn"], ["beginn", "ing"], ["no", "thing"], ["s", "po"], ["ou", "d"], ["u", "ed"], ["\u2014", "\u201d"], ["said", ","], ["Queen", ","], ["i", "ld"], ["It", "\u2019s"], ["re", "pe"], ["D", "u"], ["S", "oup"], ["if", "ul"], ["cour", "t"], ["H", "er"], ["King", "."], ["P", "ot"], ["nam", "ed"], ["an", "other"], ["ab", "bit"], ["pp", "ed"], ["The", "re"], ["t", "ry"], ["w", "al"], ["se", "t"], ["The", "y"], ["ent", "s"], ["i", "gh"], ["s", "at"], ["h", "alf"], ["D", "o"], ["us", "ed"], ["h", "and"], ["b", "le"], ["an", "ce"], ["h", ","], ["m", "agic"], ["l", "ar"], ["get", "ting"], ["oo", "m"], ["fe", "lt"], ["en", "ce"], ["at", "e"], ["ang", "er"], ["me", "m"], ["b", "us"], ["spo", "ke"], ["whi", "ch"], ["ne", "x"], ["nex", "t"], ["i", "o"], ["u", "se"], ["g", "one"], ["day", "."], ["s", "k"], ["ked", "."], ["in", "."], ["ter", "r"], ["all", "y"], ["c", "la"], ["spe", "ct"], ["whe", "re"], ["ap", "pe"], ["Har", "e"], ["t", "ea"], ["g", "u"], ["sh", "ould"], ["m", "on"], ["re", "ad"], ["ch", "oo"], ["S", "he"], ["ch", "ild"], ["f", "f"], ["ex", "e"], ["exe", "cut"], ["ot", "e"], ["Queen", "."], ["an", "x"], ["anx", "ious"], ["Du", "chess"], ["mad", "e"], ["Gryphon", ","], ["t", "ed"], ["Turtle", "."], ["c", "reat"], ["g", "ave"], ["R", "on"], ["Her", "mi"], ["Hermi", "one"], ["Q", "u"], ["Qu", "idd"], ["Quidd", "itch"], ["m", "as"], ["spe", "ll"], ["I", "n"], ["on", "ce"], ["sid", "er"], ["su", "d"], ["sud", "den"], ["sudden", "ly"], ["pp", "ing"], ["w", "ell"], ["wal", "ked"], ["won", "der"], ["is", "on"], ["v", "ent"], ["u", "st"], ["but", "ter"], ["S", "o"], ["c", "ar"], ["ct", "ion"], ["Alice", "\u2019s"], ["F", "oot"], ["old", "en"], ["hur", "ried"], ["g", "ard"], ["w", "at"], ["b", "led"], ["b", "ir"], ["d", "r"], ["l", "ing"], ["t", "ab"], ["L", "or"], ["h", "as"], ["spe", "ak"], ["any", "thing"], ["i", "ve"], ["id", "ea"], ["u", "ck"], ["act", "ly"], ["i", "e"], ["herself", ","], ["M", "ouse"], ["s", "ur"], ["qu", "i"], ["er", "."], ["que", "st"], ["quest", "ion"], ["r", "oom"], ["again", ","], ["to", "ge"], ["toge", "ther"], ["he", "ard"], ["d", "is"], ["pu", "z"], ["puz", "z"], ["re", "as"], ["ing", ","], ["er", "t"], ["s", "w"], ["con", "t"], ["You", "\u2019"], ["u", "nd"], ["und", "er"], ["tal", "king"], ["ra", "ther"], ["lar", "ge"], ["h", "in"], ["m", "ay"], ["happ", "en"], ["ag", "on"], ["t", "e"], ["do", "es"], ["appe", "ar"], ["was", "n\u2019t"], ["with", "out"], ["g", "l"], ["gl", "ad"], ["it", "ing"], ["in", "terr"], ["interr", "up"], ["That", "\u2019s"], ["King", ","], ["else", "."], ["M", "a"], ["Ma", "j"], ["Maj", "est"], ["Majest", "y"], ["R", "abbit"], ["execut", "ion"], ["b", "st"], ["c", "re"], ["E", "x"], ["s", "l"], ["B", "ea"], ["ut", "iful"], ["y", "ear"], ["f", "ri"], ["fri", "end"], ["mas", "ter"], ["pe", "t"], ["S", "ly"], ["Sly", "ther"], ["H", "all"], ["v", "al"], ["k", "ill"], ["Voldemort", "."], ["p", "ow"], ["fa", "ther"], ["o", "en"], ["oen", "i"], ["oeni", "x"], ["P", "h"], ["c", "ked"], ["sa", "d"], ["wonder", "ing"], ["s", "ort"], ["f", "fe"], ["finis", "hed"], ["mu", "st"], ["f", "un"], ["pre", "s"], ["again", "st"], ["th", "an"], ["h", "igh"], ["gard", "en"], ["c", "ro"], ["ta", "il"], ["an", "k"], ["c", "lo"], ["le", "."], ["has", "ti"], ["n", "g"], ["Do", "do"], ["d", "es"], ["ex", "actly"], ["p", "ie"], ["pie", "ce"], ["gr", "ave"], ["th", "im"], ["c", "r"], ["whi", "le"], ["b", "owed"], ["is", "ed"], ["ang", "ri"], ["gr", "ow"], ["c", "ome"], ["pleas", "e"], ["ma", "king"], ["con", "ver"], ["conver", "s"], ["convers", "ation"], ["sto", "pped"], ["T", "his"], ["o", "pp"], ["it", "y"], ["t", "ill"], ["ar", "k"], ["ound", "ed"], ["m", "ou"], ["mou", "th"], ["H", "ere"], ["c", "ert"], ["cert", "ain"], ["certain", "ly"], ["t", "em"], ["re", "mem"], ["remem", "ber"], ["I\u2019", "ve"], ["s", "ing"], ["ar", "ing"], ["f", "oot"], ["you", "\u2019"], ["ed", ",\u201d"], ["um", "ber"], ["bo", "th"], ["u", "g"], ["this", ","], ["Foot", "man"], ["t", "re"], ["be", "hin"], ["behin", "d"], ["sa", "me"], ["tone", "."], ["sa", "w"], ["m", "any"], ["does", "n\u2019t"], ["pe", "o"], ["peo", "ple"], ["remar", "ked."], ["a", "ce"], ["A", "ll"], ["C", "ome"], ["that", ",\u201d"], ["it", "?\u201d"], ["on", "."], ["Hatter", ","], ["as", "i"], ["remar", "k"], ["li", "ght"], ["tw", "ink"], ["reas", "on"], ["ke", "ep"], ["al", "way"], ["alway", "s"], ["N", "o"], ["t", "ri"], ["con", "f"], ["po", "or"], ["cur", "ious"], ["ch", "an"], ["pro", "ce"], ["her", ","], ["on", "s"], ["l", "oud"], ["voice", ","], ["y", "al"], ["child", "r"], ["childr", "en"], ["so", "ld"], ["sold", "i"], ["soldi", "ers"], ["sh", "out"], ["shout", "ed"], ["Wh", "ite"], ["execution", "er"], ["m", "y"], ["repe", "ated"], ["g", "ame"], ["P", "r"], ["en", "er"], ["w", "a"], ["interrup", "ted"], ["creat", "ure"], ["fa", "ce"], ["lo", "bst"], ["C", "h"], ["sh", "o"], ["spect", "acle"], ["sl", "at"], ["r", "id"], ["f", "t"], ["f", "ul"], ["e", "en"], ["Pot", "ter"], ["choo", "l"], ["for", "m"], ["house", "."], ["S", "n"], ["d", "anger"], ["danger", "ous"], ["magic", "al"], ["idd", "en"], ["to", "r"], ["val", "ued"], ["ab", "o"], ["abo", "ve"], ["pow", "er"], ["E", "at"], ["f", "am"], ["fam", "ily"], ["be", "ca"], ["beca", "use"], ["cre", "t"], ["P", "at"], ["Pat", "ron"], ["S", "tone"], ["E", "ld"], ["Eld", "er"], ["W", "and"], ["con", "sider"], ["wor", "ld"], ["other", ","], ["door", ","], ["vent", "ur"], ["ventur", "ed"], ["f", "act"], ["e", ","], ["h", "ot"], ["so", "on"], ["off", "."], ["wor", "k"], ["pl", "an"], ["n", "ing"], ["man", "age"], ["\u201c", "and"], ["n", "ine"], ["g", "olden"], ["P", "o"], ["th", "r"], ["thr", "ough"], ["le", "ss"], ["O", "n"], ["in", "de"], ["inde", "ed"], ["er", "-"], ["p", "art"], ["bir", "d"], ["a", "ther"], ["clo", "se"], ["them", ","], ["com", "for"], ["comfor", "tab"], ["N", "ot"], ["hasti", "ly."], ["le", "t"], ["mean", "ing"], ["o", "se"], ["be", "li"], ["beli", "e"], ["belie", "ve"], ["mi", "le"], ["in", "ed"], ["p", "ri"], ["pri", "z"], ["or", "us"], ["po", "c"], ["poc", "ke"], ["pocke", "t"], ["l", "uck"], ["know", ",\u201d"], ["O", "f"], ["cour", "se"], ["repli", "ed"], ["\u201c", "What"], ["so", "le"], ["sole", "m"], ["solem", "n"], ["ce", "p"], ["who", "le"], ["could", "."], ["p", "rom"], ["e", "\u2014"], ["sh", "ar"], ["shar", "p"], ["rep", "ly."], ["Y", "es,"], ["as", "k"], ["e", "ffe"], ["effe", "ct"], ["en", "."], ["r", "an"], ["s", "ounded"], ["l", "ast"], ["ss", "ed"], ["s", "le"], ["sle", "ep"], ["tem", "per"], ["W", "ell"], ["Well", ","], ["e", ",\u201d"], ["d", "if"], ["dif", "f"], ["diff", "er"], ["differ", "ent"], [",", "\u2019"], [",\u2019", "\u201d"], ["wr", "ong"], ["ct", "ed"], ["A", "re"], ["it", "self"], ["herself", "."], ["s", "ight"], ["puzz", "led"], ["n", "umber"], ["low", ","], ["gr", "ound"], ["t", "im"], ["tim", "id"], ["o", "p"], ["out", ","], ["no", "se"], ["b", "ro"], ["cont", "in"], ["contin", "ued"], ["tone", ","], ["O", "h,"], ["pe", "pp"], ["e", "z"], ["fe", "el"], ["ju", "m"], ["jum", "p"], ["n", "at"], ["nat", "ur"], ["cla", "w"], ["Cat", "."], ["m", "atter"], ["p", "ur"], ["Cat", ","], ["v", "an"], ["van", "is"], ["vanis", "hed"], ["appear", "ed"], ["p", "ig"], ["qui", "et"], ["f", "ig"], ["re", "m"], ["is", "n\u2019t"], ["c", "i"], ["it", ",\u201d"], ["be", "ing"], ["cur", "io"], ["curio", "sit"], ["sh", "all"], ["\u201c", "I\u2019m"], ["beg", "un"], ["gu", "ess"], ["an", "sw"], ["answ", "er"], ["you", ",\u201d"], ["d", "ro"], ["sil", "ent"], ["en", "ce."], ["ta", "k"], ["T", "w"], ["to", "ld"], ["repli", "ed."], ["c", "as"], ["ma", "ke"], ["mo", "v"], ["s", "up"], ["one", ",\u201d"], ["a", "ke"], ["up", ","], ["che", "d"], ["on", "ce."], ["T", "ell"], ["li", "ved"], ["acle", ",\u201d"], ["Dormouse", ","], ["tea", ",\u201d"], ["p", "ers"], ["Wh", "y"], ["c", "ed"], ["s", "too"], ["proce", "ss"], ["process", "ion"], ["in", "st"], ["head", "s"], ["pr", "ote"], ["e", "v"], ["anxious", "ly"], ["en", "ough"], ["go", "ing"], ["spoke", "."], ["e", "ag"], ["eag", "er"], ["ar", "g"], ["arg", "um"], ["h", "ard"], ["was", ","], ["su", "ch"], ["pr", "ison"], [".", "\u201d"], ["r", "ow"], ["me", "t"], ["f", "o"], ["fo", "ll"], ["st", "s"], ["li", "v"], ["g", "ener"], ["that", "\u2019s"], ["Turtle", ","], ["chan", "ge"], ["b", "j"], ["bj", "e"], ["bje", "ct"], ["lobst", "ers"], ["a", "ir"], ["n", "ed"], ["sho", "es"], ["pl", "ain"], ["repe", "at"], ["S", "t"], ["po", "sit"], ["even", "ing,"], ["be", "a"], ["bea", "utiful"], ["Soup", "!"], ["Bea", "u"], ["S", "oo"], ["Soo", "\u2014"], ["Soo\u2014", "oo"], ["Soo\u2014oo", "p"], ["ron", "t"], ["ver", "di"], ["verdi", "ct"], ["verdict", ",\u201d"], ["court", ","], ["down", ",\u201d"], ["jury", ","], ["wr", "ote"], ["slat", "es,"], ["wit", "n"], ["witn", "ess"], ["ry", "."], ["I", "f"], ["c", "ook"], ["jury", "m"], ["important", "\u2014"], ["tr", "ue"], ["re", "turned"], ["f", "it"], ["be", "tw"], ["betw", "een"], ["P", "ri"], ["H", "ag"], ["Hag", "rid"], ["S", "ort"], ["Sort", "ing"], ["H", "at"], ["pl", "ac"], ["plac", "ed"], ["see", "k"], ["seek", "er"], ["en", "ch"], ["ench", "ant"], ["A", "l"], ["Al", "bus"], ["D", "um"], ["Dum", "bled"], ["Dumbled", "ore"], ["a", "pe"], ["u", "ght"], ["Pot", "ion"], ["a", "z"], ["d", "ur"], ["dur", "ing"], ["m", "at"], ["mo", "st"], ["sh", "owed"], ["Slyther", "in"], ["H", "u"], ["lo", "yal"], ["d", "ark"], ["wizard", "s"], ["kill", "ed"], ["p", "ar"], ["par", "ents"], ["m", "other"], ["power", "ful"], ["M", "alf"], ["Malf", "o"], ["Malfo", "y"], ["G", "inn"], ["g", "le"], ["wizard", "ing"], ["D", "i"], ["Di", "agon"], ["h", "idden"], ["ph", "oenix"], ["Mar", "au"], ["Marau", "d"], ["Maraud", "ers"], ["M", "ap"], ["D", "em"], ["Dem", "en"], ["Demen", "tor"], ["or", "i"], ["Patron", "us"], ["ch", "arm"], ["c", "ant"], ["li", "x"], ["Ph", "il"], ["Phil", "o"], ["Philo", "so"], ["Philoso", "p"], ["Philosop", "her"], ["L", "i"], ["B", "asi"], ["Basi", "li"], ["Basili", "sk"], ["b", "at"], ["T", "ri"], ["Tri", "wizard"], ["T", "our"], ["Tour", "nam"], ["Tournam", "ent"], ["v", "i"], ["Death", "ly"], ["Hall", "ow"], ["de", "fe"], ["consider", "ing"], ["h", "o"], ["st", "ra"], ["stra", "ight"], ["t", "un"], ["way", ","], ["down", ","], ["f", "ound"], ["f", "all"], ["de", "ep"], ["h", "all"], ["try", "ing"], ["sad", "ly"], ["ever", ","], ["b", "ot"], ["bot", "tle"], ["find", "ing"], ["ice", ","], ["(", "it"], ["t", "art"], ["er", ",\u201d"], ["n", "y"], ["end", "ing"], ["pres", "ents"], ["fe", "et"], ["di", "re"], ["w", "ill"], ["lo", "ve"], [")", "."], ["J", "ust"], ["st", "ru"], ["stru", "ck"], ["ke", "y"], ["door", "."], ["do", ","], ["side", ","], ["ey", "e"], ["c", "ry"], ["do", "th"], ["c", "o"], ["in", "ing"], ["tail", ","], ["p", "our"], ["i", "le"], ["part", "y"], ["b", "ank"], ["bird", "s"], ["fe", "ather"], ["al", "s"], ["d", "ri"], ["un", "comfortab"], ["E", "ng"], ["Eng", "li"], ["Engli", "sh"], ["E", "ag"], ["Eag", "let"], ["more", ","], ["i", "ther"], ["h", "id"], ["C", "au"], ["c", "us"], ["Alice", ";"], ["want", "ed"], ["c", "l"], ["g", "ive"], ["ch", "orus"], ["pocket", ","], ["bo", "x"], ["f", "its"], ["fits", ","], ["course", ",\u201d"], ["On", "ly"], ["thim", "ble"], ["here", ",\u201d"], ["pres", "ent"], ["thim", "b"], ["thimb", "le,"], ["say", "ing"], ["ac", "cep"], ["e", "le"], ["spe", "e"], ["spee", "ch"], ["che", "er"], ["d", ","], ["t", "ell"], ["wh", "is"], ["af", "ra"], ["afra", "id"], ["off", "end"], ["offend", "ed"], ["Mouse", ","], ["s", "igh"], ["angri", "ly."], ["finis", "h"], ["sto", "ry"], ["story", "!\u201d"], ["other", "s"], ["j", "o"], ["jo", "ined"], ["sh", "ook"], ["at", "i"], ["ati", "ent"], ["mi", "ght"], ["vent", "ure"], ["g", "re"], ["st", "ill"], ["ch", "ance"], ["un", "happ"], ["ta", "king"], ["minut", "es"], ["li", "st"], ["did", ","], ["other", "s."], ["es", "ca"], ["esca", "pe"], ["once", ","], ["dis", "t"], ["dist", "an"], ["distan", "ce."], ["sil", "ence"], ["h", "ook"], ["hook", "a"], ["hooka", "h"], ["sleep", "y"], ["bit", ",\u201d"], ["pleas", "ant"], ["a", "way"], ["prom", "is"], ["I", "s"], ["ow", "ing"], ["an", "\u2019t"], ["t", "ried"], ["different", "!\u201d"], ["ch", "o"], ["R", "e"], ["right", ",\u201d"], ["de", "c"], ["dec", "id"], ["decid", "ed"], ["decided", "ly,"], ["minut", "es."], ["li", "fe"], ["before", ","], ["now", "?\u201d"], ["che", "s"], ["You\u2019", "ll"], ["time", ",\u201d"], ["O", "ne"], ["what", "?\u201d"], ["al", "oud"], ["i", "b"], ["ha", "ven"], ["haven", "\u2019t"], ["you\u2019", "re"], ["puzzled", ","], ["full", "y,"], ["ch", "ang"], ["together", "."], ["la", "ug"], ["laug", "hed"], ["r", "un"], ["fe", "ar"], ["pe", "ep"], ["is", "h"], ["gone", ","], ["st", "aring"], ["up", "id"], ["op", "en"], ["im", "m"], ["tre", "es"], ["day", ","], ["be", ",\u201d"], ["there", "\u2019s"], ["ate", "ly"], ["pepp", "er"], ["s", "ne"], ["sne", "ez"], ["po", "l"], ["pol", "ite"], ["feel", "ing"], ["pleas", "ed"], ["jump", "ing"], ["go", "es"], ["f", "le"], ["fle", "w"], ["car", "ried"], ["re", "spect"], ["c", "are"], ["go", ",\u201d"], ["sur", "pr"], ["pl", "ace"], ["quiet", "ly"], ["natur", "al"], ["D", "id"], ["s", "low"], ["in", ","], ["rem", "ain"], ["re", "st"], ["H", "ave"], ["w", "ine"], ["wine", ",\u201d"], ["en", "cour"], ["ci", "v"], ["civ", "il"], ["v", "it"], ["Come", ","], ["w", "e"], ["r", "idd"], ["ridd", "le"], ["mean", ",\u201d"], ["wr", "iting"], ["b", "re"], ["bre", "ak"], ["sil", "ence."], ["mon", "th"], ["tak", "en"], ["wat", "ch"], ["u", "ne"], ["Tw", "o"], ["be", "st"], ["min", "e,\u201d"], ["d", "read"], ["dread", "full"], ["dreadfull", "y"], ["y", "et"], ["st", "and"], ["asle", "ep"], ["up", "on"], ["guess", "ed"], ["some", "thing"], ["itself", ","], ["twink", "le,"], ["p", "in"], ["mov", "ing"], ["round", ","], ["po", "se"], ["again", "?\u201d"], ["\u201c", "W"], ["li", "ve"], ["on", "?\u201d"], ["in", "king"], ["minut", "e"], ["T", "ake"], ["No", "body"], ["pers", "on"], ["tri", "um"], ["trium", "ph"], ["triumph", "ant"], ["T", "re"], ["Tre", "acle,\u201d"], ["time", "."], ["remark", "."], ["tal", "k"], ["ic", "ed"], ["thing", "\u2019s"], ["n", "one"], ["bus", "in"], ["S", "even"], ["ru", "sh"], ["stoo", "d"], ["che", "cked"], ["him", "self"], ["so", ","], ["K", "n"], ["Kn", "ave"], ["s", "m"], ["ons", "en"], ["onsen", "se"], ["ri", "ll"], ["garden", "ers"], ["inst", "ant"], ["instant", "ly"], ["every", "body"], ["O", "ff"], ["prote", "ction"], ["be", "head"], ["two", ","], ["Majesty", "!\u201d"], ["ev", "id"], ["her", "."], ["fin", "e"], ["sid", "e."], ["\u2019", "?\u201d"], ["to", "?\u201d"], ["curiosit", "y."], ["I\u2019", "d"], ["D", "on"], ["Don", "\u2019t"], ["that", "!\u201d"], ["fe", "t"], ["fet", "ch"], ["al", "ed"], ["th", "ough"], ["said", "."], ["argum", "ent"], ["can", "\u2019t"], ["de", "ar"], ["thing", "!\u201d"], ["ha", "p"], ["hap", "s"], ["ut", ","], ["m", "or"], ["al", ","], ["s", "er"], ["be", "t"], ["bet", "ter"], ["things", "!\u201d"], ["repli", "ed,"], ["ex", "per"], ["think", ",\u201d"], ["bir", "th"], ["di", "g"], ["ea", "k"], ["L", "et"], ["foll", "owed"], ["one", ","], ["or", "der"], ["ey", "es"], ["l", "ed."], ["t", "ear"], ["beg", "in."], ["begin.", "\u201d"], ["did", "n\u2019t"], ["didn\u2019t", "!\u201d"], ["did", ",\u201d"], ["H", "old"], ["t", "ong"], ["tong", "ue"], ["tongue", "!\u201d"], ["was", "h"], ["creature", "s"], ["face", "s"], ["su", "bject"], ["subject", "."], ["ex", "cla"], ["excla", "im"], ["was", ",\u201d"], ["tw", "el"], ["se", "a"], ["again", "!\u201d"], ["to", "p"], ["t", "y"], ["W", "ould"], ["You\u2019", "re"], ["cr", "um"], ["crum", "b"], ["crumb", "s"], ["a", "w"], ["sh", "ut"], ["ey", "es."], ["b", "oot"], ["boot", "s"], ["th", "or"], ["re", "ally"], ["ex", "plain"], ["posit", "ion"], ["so", "."], ["Bea", "utiful"], ["Beau", "\u2014"], ["Beau\u2014", "oot"], ["Beau\u2014oot", "iful"], ["Soo\u2014oop", "!"], ["tri", "al"], ["h", "and,"], ["wa", "iting"], ["wor", "e"], ["w", "ig"], ["f", "ront"], ["C", "on"], ["Con", "sider"], ["jury", "."], ["Dormouse", "."], ["conf", "us"], ["confus", "ion"], ["te", "ac"], ["teac", "up"], ["b", "read"], ["bread", "-"], ["bread-", "and"], ["bread-and", "-"], ["bread-and-", "butter"], ["ab", "le"], ["f", "as"], ["den", "y"], ["k", "ne"], ["pre", "ss"], ["er", "s."], ["le", "ft"], ["ta", "ke"], ["off", "ic"], ["cook", "."], ["F", "or"], ["\u201c", "un"], ["important", ",\u201d"], ["important\u2014", "un"], ["high", ",\u201d"], ["b", "ook"], ["jurym", "en."], ["c", "le"], ["spectacle", "s."], ["m", "ent"], ["B", "e"], ["c", "up"], ["bo", "ard"], ["st", "air"], ["f", "our"], ["S", "chool"], ["W", "itch"], ["Witch", "c"], ["Witchc", "ra"], ["Witchcra", "ft"], ["W", "izard"], ["Wizard", "ry."], ["pl", "at"], ["plat", "form"], ["qu", "ar"], ["quar", "ter"], ["quarter", "s."], ["tr", "ain"], ["G", "r"], ["pl", "ay"], ["lo", "ved"], ["enchant", "ed"], ["wit", "ch"], ["st", "er"], ["head", "master"], ["Pr", "of"], ["Prof", "ess"], ["Profess", "or"], ["Sn", "ape"], ["ta", "ught"], ["as", "s"], ["M", "c"], ["Mc", "G"], ["McG", "on"], ["McGon", "ag"], ["McGonag", "all"], ["h", "ome"], ["c", "at"], ["G", "olden"], ["Sn", "itch"], ["mat", "ch"], ["Slyther", "in."], ["com", "mon"], ["lo", "c"], ["loc", "ated"], ["re", "g"], ["G", "reat"], ["R", "a"], ["Ra", "ven"], ["Raven", "claw"], ["Hu", "ff"], ["Huff", "le"], ["Huffle", "pu"], ["Hufflepu", "ff"], ["Lor", "d"], ["sa", "c"], ["sac", "ri"], ["sacri", "f"], ["s", "car"], ["at", "t"], ["att", "ack"], ["Eat", "ers"], ["D", "r"], ["Dr", "ac"], ["Drac", "o"], ["b", "loo"], ["bloo", "d"], ["ag", "e."], ["k", "n"], ["kn", "own"], ["bro", "ther"], ["brother", "s"], ["you", "ng"], ["Ginn", "y"], ["B", "ur"], ["Bur", "row"], ["n", "ame"], ["one", "."], ["mu", "g"], ["mug", "gle"], ["M", "in"], ["Min", "is"], ["Minis", "try"], ["M", "agic"], ["r", "it"], ["L", "on"], ["Lon", "don"], ["London", "."], ["b", "ought"], ["O", "l"], ["Ol", "liv"], ["Olliv", "and"], ["All", "e"], ["Alle", "y."], ["wand", "s"], ["p", "ort"], ["se", "cret"], ["friend", "s."], ["J", "ame"], ["Jame", "s"], ["st", "ag"], ["stag", "."], ["S", "i"], ["Si", "ri"], ["Siri", "us"], ["B", "l"], ["Bl", "ack"], ["A", "z"], ["Az", "k"], ["Azk", "ab"], ["Azkab", "an"], ["ter", "ri"], ["terri", "ble"], ["Dementor", "s"], ["c", "ast"], ["Ex", "pe"], ["opp", "on"], ["oppon", "ent"], ["Po", "ly"], ["Poly", "ju"], ["Polyju", "ice"], ["com", "ple"], ["F", "e"], ["E", "lix"], ["Elix", "ir"], ["Li", "fe"], ["who", "ever"], ["M", "ir"], ["Mir", "r"], ["Mirr", "or"], ["E", "r"], ["Er", "ised"], ["i", "re"], ["Ch", "am"], ["Cham", "ber"], ["S", "e"], ["Se", "cret"], ["Secret", "s"], ["bat", "tle"], ["s", "chool"], ["O", "r"], ["Or", "der"], ["Ph", "oenix"], ["f", "ight"], ["sur", "vi"], ["Pri", "ori"], ["In", "cant"], ["Incant", "at"], ["Incantat", "em"], ["gh", "o"], ["gho", "sts"], ["Wand", "."], ["Hallow", "s"], ["defe", "ated"], ["pe", "ace"], ["fin", "ally"], ["mar", "ried"], ["r", "abbit"], ["rabbit", "-"], ["rabbit-", "ho"], ["rabbit-ho", "le"], ["tun", "ne"], ["tunne", "l"], ["di", "pped"], ["sto", "pping"], ["fall", "ing"], ["well", "."], ["door", "s"], ["hall", ","], ["lo", "cked"], ["locked", ";"], ["m", "idd"], ["midd", "le,"], ["How", "ever,"], ["mar", "ked"], ["\u201c", "po"], ["\u201cpo", "ison"], ["\u201cpoison", ",\u201d"], ["t", "ast"], ["tast", "e"], ["n", "ice,"], ["had", ","], ["fact", ","], ["mi", "x"], ["mix", "ed"], ["f", "la"], ["fla", "v"], ["flav", "our"], ["c", "her"], ["cher", "ry"], ["cherry", "-"], ["cherry-", "tart"]], "vocab": {"0": "<PAD>", "1": "<UNK>", "2": "<BOS>", "3": "<EOS>", "4": "\u0000", "5": "\u0001", "6": "\u0002", "7": "\u0003", "8": "\u0004", "9": "\u0005", "10": "\u0006", "11": "\u0007", "12": "\b", "13": "\t", "14": "\n", "15": "\u000b", "16": "\f", "17": "\r", "18": "\u000e", "19": "\u000f", "20": "\u0010", "21": "\u0011", "22": "\u0012", "23": "\u0013", "24": "\u0014", "25": "\u0015", "26": "\u0016", "27": "\u0017", "28": "\u0018", "29": "\u0019", "30": "\u001a", "31": "\u001b", "32": "\u001c", "33": "\u001d", "34": "\u001e", "35": "\u001f", "36": " ", "37": "!", "38": "\"", "39": "#", "40": "$", "41": "%", "42": "&", "43": "'", "44": "(", "45": ")", "46": "*", "47": "+", "48": ",", "49": "-", "50": ".", "51": "/", "52": "0", "53": "1", "54": "2", "55": "3", "56": "4", "57": "5", "58": "6", "59": "7", "60": "8", "61": "9", "62": ":", "63": ";", "64": "<", "65": "=", "66": ">", "67": "?", "68": "@", "69": "A", "70": "B", "71": "C", "72": "D", "73": "E", "74": "F", "75": "G", "76": "H", "77": "I", "78": "J", "79": "K", "80": "L", "81": "M", "82": "N", "83": "O", "84": "P", "85": "Q", "86": "R", "87": "S", "88": "T", "89": "U", "90": "V", "91": "W", "92": "X", "93": "Y", "94": "Z", "95": "[", "96": "\\", "97": "]", "98": "^", "99": "_", "100": "`", "101": "a", "102": "b", "103": "c", "104": "d", "105": "e", "106": "f", "107": "g", "108": "h", "109": "i", "110": "j", "111": "k", "112": "l", "113": "m", "114": "n", "115": "o", "116": "p", "117": "q", "118": "r", "119": "s", "120": "t", "121": "u", "122": "v", "123": "w", "124": "x", "125": "y", "126": "z", "127": "{", "128": "|", "129": "}", "130": "~", "131": "\u007f", "132": "\u0080", "133": "\u0081", "134": "\u0082", "135": "\u0083", "136": "\u0084", "137": "\u0085", "138": "\u0086", "139": "\u0087", "140": "\u0088", "141": "\u0089", "142": "\u008a", "143": "\u008b", "144": "\u008c", "145": "\u008d", "146": "\u008e", "147": "\u008f", "148": "\u0090", "149": "\u0091", "150": "\u0092", "151": "\u0093", "152": "\u0094", "153": "\u0095", "154": "\u0096", "155": "\u0097", "156": "\u0098", "157": "\u0099", "158": "\u009a", "159": "\u009b", "160": "\u009c", "161": "\u009d", "162": "\u009e", "163": "\u009f", "164": "\u00a0", "165": "\u00a1", "166": "\u00a2", "167": "\u00a3", "168": "\u00a4", "169": "\u00a5", "170": "\u00a6", "171": "\u00a7", "172": "\u00a8", "173": "\u00a9", "174": "\u00aa", "175": "\u00ab", "176": "\u00ac", "177": "\u00ad", "178": "\u00ae", "179": "\u00af", "180": "\u00b0", "181": "\u00b1", "182": "\u00b2", "183": "\u00b3", "184": "\u00b4", "185": "\u00b5", "186": "\u00b6", "187": "\u00b7", "188": "\u00b8", "189": "\u00b9", "190": "\u00ba", "191": "\u00bb", "192": "\u00bc", "193": "\u00bd", "194": "\u00be", "195": "\u00bf", "196": "\u00c0", "197": "\u00c1", "198": "\u00c2", "199": "\u00c3", "200": "\u00c4", "201": "\u00c5", "202": "\u00c6", "203": "\u00c7", "204": "\u00c8", "205": "\u00c9", "206": "\u00ca", "207": "\u00cb", "208": "\u00cc", "209": "\u00cd", "210": "\u00ce", "211": "\u00cf", "212": "\u00d0", "213": "\u00d1", "214": "\u00d2", "215": "\u00d3", "216": "\u00d4", "217": "\u00d5", "218": "\u00d6", "219": "\u00d7", "220": "\u00d8", "221": "\u00d9", "222": "\u00da", "223": "\u00db", "224": "\u00dc", "225": "\u00dd", "226": "\u00de", "227": "\u00df", "228": "\u00e0", "229": "\u00e1", "230": "\u00e2", "231": "\u00e3", "232": "\u00e4", "233": "\u00e5", "234": "\u00e6", "235": "\u00e7", "236": "\u00e8", "237": "\u00e9", "238": "\u00ea", "239": "\u00eb", "240": "\u00ec", "241": "\u00ed", "242": "\u00ee", "243": "\u00ef", "244": "\u00f0", "245": "\u00f1", "246": "\u00f2", "247": "\u00f3", "248": "\u00f4", "249": "\u00f5", "250": "\u00f6", "251": "\u00f7", "252": "\u00f8", "253": "\u00f9", "254": "\u00fa", "255": "\u00fb", "256": "\u00fc", "257": "\u00fd", "258": "\u00fe", "259": "\u00ff", "260": "he", "261": "the", "262": "in", "263": "an", "264": "er", "265": "ou", "266": "at", "267": "ed", "268": "on", "269": "ar", "270": "as", "271": "to", "272": "it", "273": "id", "274": "ing", "275": "and", "276": "en", "277": "or", "278": "sa", "279": "ce", "280": "th", "281": "li", "282": "re", "283": "said", "284": "ll", "285": "of", "286": "le", "287": "is", "288": "was", "289": "se", "290": "ad", "291": "Ali", "292": "Alice", "293": ",\u201d", "294": "ow", "295": "ly", "296": "ry", "297": "The", "298": "st", "299": "ld", "300": "me", "301": "ch", "302": "be", "303": "oo", "304": "ver", "305": "she", "306": "you", "307": "all", "308": "ur", "309": "ut", "310": "gh", "311": "ent", "312": "had", "313": "ter", "314": "ri", "315": "al", "316": "!\u201d", "317": "Har", "318": "ag", "319": "ot", "320": "pe", "321": "es", "322": "her", "323": "that", "324": "wh", "325": "so", "326": "one", "327": "?\u201d", "328": "ir", "329": "ve", "330": "ther", "331": "ght", "332": "Harry", "333": "for", "334": "ked", "335": "out", "336": "very", "337": "his", "338": "\u2019s", "339": "nd", "340": "ro", "341": "wit", "342": "sh", "343": "\u2019t", "344": "ain", "345": "ort", "346": "em", "347": "im", "348": "ion", "349": "ke", "350": "ue", "351": "ac", "352": "ard", "353": "ould", "354": "with", "355": "s.", "356": "ay", "357": "do", "358": "they", "359": "tle", "360": "old", "361": "ne", "362": "ab", "363": "up", "364": "loo", "365": "ant", "366": "ge", "367": "thing", "368": "art", "369": "fe", "370": "Wh", "371": "ouse", "372": "not", "373": "ill", "374": "king", "375": "own", "376": "ju", "377": "King", "378": "Gry", "379": "un", "380": "us", "381": "Alice.", "382": "pp", "383": "fin", "384": "who", "385": "Cat", "386": "again", "387": "but", "388": "if", "389": "ct", "390": "beg", "391": "am", "392": "ph", "393": "po", "394": "our", "395": "ck", "396": "il", "397": "atter", "398": "Que", "399": "Queen", "400": "other", "401": "down", "402": "Ho", "403": "Hog", "404": "Hogw", "405": "Hogwart", "406": "sel", "407": "ice", "408": "off", "409": "ought", "410": "ers", "411": "no", "412": "ave", "413": "self", "414": "ere", "415": "ca", "416": "their", "417": "Hatter", "418": "Vold", "419": "Voldem", "420": "Voldemort", "421": "om", "422": "ound", "423": "lo", "424": "whe", "425": "now", "426": "could", "427": "ex", "428": "some", "429": "this", "430": "tur", "431": "ried", "432": "It", "433": "into", "434": "ss", "435": "ti", "436": "ly.", "437": "ea", "438": "che", "439": "Alice,", "440": "iz", "441": "wor", "442": "by", "443": "head", "444": "spe", "445": "ite", "446": "your", "447": "turn", "448": "did", "449": "reat", "450": "um", "451": "n\u2019t", "452": "Gryph", "453": "Gryphon", "454": "con", "455": "ra", "456": "de", "457": "And", "458": "mu", "459": "don", "460": "what", "461": "any", "462": "vo", "463": "erp", "464": "Mar", "465": "tw", "466": "Mo", "467": "izard", "468": "sid", "469": "ink", "470": "were", "471": "thought", "472": "bo", "473": "qu", "474": "voice", "475": "ed.", "476": "rom", "477": "Caterp", "478": "Caterpill", "479": "Caterpillar", "480": "ous", "481": "e.", "482": "Tur", "483": "went", "484": "find", "485": "pl", "486": "go", "487": "them", "488": "don\u2019t", "489": "ong", "490": "asked", "491": "ree", "492": "orm", "493": "Mock", "494": "Turtle", "495": "wizard", "496": "af", "497": "get", "498": "way", "499": "herself", "500": "What", "501": "say", "502": "ang", "503": "ple", "504": "I\u2019", "505": "March", "506": "Dorm", "507": "Dormouse", "508": "ul", "509": "like", "510": "ep", "511": "ell", "512": "when", "513": "end", "514": "ore", "515": "too", "516": "ta", "517": "its", "518": "gr", "519": "looked", "520": "y.", "521": "ic", "522": "time", "523": "see", "524": "from", "525": "three", "526": "ven", "527": "Hogwarts", "528": "idd", "529": "mar", "530": "mi", "531": "oot", "532": "lit", "533": "little", "534": "But", "535": "cour", "536": "are", "537": "imp", "538": "You", "539": "ha", "540": "fir", "541": "first", "542": "min", "543": "day", "544": "him", "545": "tone", "546": "wand", "547": "jury", "548": "how", "549": "di", "550": "about", "551": "et", "552": "looking", "553": "led", "554": "know", "555": "el", "556": "Then", "557": "hat", "558": "per", "559": "ack", "560": "ly,", "561": "ting", "562": "inn", "563": "house", "564": "ious", "565": "after", "566": "again.", "567": "bit", "568": "su", "569": "think", "570": "le,", "571": "would", "572": "ear", "573": "began", "574": "com", "575": "pu", "576": "rep", "577": "ome", "578": "there", "579": "ation", "580": "came", "581": "just", "582": "fa", "583": "Gryf", "584": "Gryffind", "585": "Gryffindor", "586": "ight", "587": "fore", "588": "door", "589": "round", "590": "been", "591": "der", "592": "ever", "593": "ast", "594": "la", "595": "hed", "596": "much", "597": "ough", "598": "pro", "599": "s,", "600": "ak", "601": "mean", "602": "ded", "603": "whi", "604": "We", "605": "owed", "606": "call", "607": "ook", "608": "turned", "609": "ber", "610": "That", "611": "tr", "612": "low", "613": "ath", "614": "ap", "615": "ig", "616": "asle", "617": "ved", "618": "itch", "619": "Hogwarts.", "620": "nam", "621": "mom", "622": "moment", "623": "then", "624": "side", "625": "every", "626": "act", "627": "seem", "628": "more", "629": "que", "630": "alf", "631": "quite", "632": "added", "633": "only", "634": "fu", "635": "full", "636": "ood", "637": "ce.", "638": "Caterpillar.", "639": "right", "640": "wr", "641": "mo", "642": "cur", "643": "sit", "644": "ed,", "645": "great", "646": "mad", "647": "remar", "648": "pr", "649": "cut", "650": "can", "651": "ess", "652": "est", "653": "ated", "654": "import", "655": "important", "656": "eath", "657": "never", "658": "den", "659": "sto", "660": "How", "661": "man", "662": "it.", "663": "pre", "664": "hur", "665": "long", "666": "and,", "667": "bod", "668": "body", "669": "asked.", "670": "put", "671": "ily", "672": "lt", "673": "got", "674": "have", "675": "repli", "676": "cried", "677": "called", "678": "pleas", "679": "ure", "680": "agic", "681": "happ", "682": "ma", "683": "good", "684": "sil", "685": "tal", "686": "I\u2019m", "687": "oup", "688": "Hare.", "689": "Hatter.", "690": "He", "691": "arm", "692": "acle", "693": "two", "694": "even", "695": "chess", "696": "ame", "697": "Gryphon.", "698": "ron", "699": "Weasle", "700": "Weasley", "701": "Death", "702": "it,", "703": "before", "704": "won", "705": "ine", "706": "y,", "707": "finis", "708": "age", "709": "look", "710": "ru", "711": "near", "712": "took", "713": "ey", "714": "\u201cI", "715": "word", "716": "au", "717": "want", "718": "pa", "719": "else", "720": "seemed", "721": "es.", "722": "on,", "723": "turning", "724": "over", "725": "here", "726": "ing.", "727": "back", "728": "es,", "729": "minut", "730": "voice.", "731": "Who", "732": "things", "733": "beginn", "734": "beginning", "735": "nothing", "736": "spo", "737": "oud", "738": "ued", "739": "\u2014\u201d", "740": "said,", "741": "Queen,", "742": "ild", "743": "It\u2019s", "744": "repe", "745": "Du", "746": "Soup", "747": "iful", "748": "court", "749": "Her", "750": "King.", "751": "Pot", "752": "named", "753": "another", "754": "abbit", "755": "pped", "756": "There", "757": "try", "758": "wal", "759": "set", "760": "They", "761": "ents", "762": "igh", "763": "sat", "764": "half", "765": "Do", "766": "used", "767": "hand", "768": "ble", "769": "ance", "770": "h,", "771": "magic", "772": "lar", "773": "getting", "774": "oom", "775": "felt", "776": "ence", "777": "ate", "778": "anger", "779": "mem", "780": "bus", "781": "spoke", "782": "which", "783": "nex", "784": "next", "785": "io", "786": "use", "787": "gone", "788": "day.", "789": "sk", "790": "ked.", "791": "in.", "792": "terr", "793": "ally", "794": "cla", "795": "spect", "796": "where", "797": "appe", "798": "Hare", "799": "tea", "800": "gu", "801": "should", "802": "mon", "803": "read", "804": "choo", "805": "She", "806": "child", "807": "ff", "808": "exe", "809": "execut", "810": "ote", "811": "Queen.", "812": "anx", "813": "anxious", "814": "Duchess", "815": "made", "816": "Gryphon,", "817": "ted", "818": "Turtle.", "819": "creat", "820": "gave", "821": "Ron", "822": "Hermi", "823": "Hermione", "824": "Qu", "825": "Quidd", "826": "Quidditch", "827": "mas", "828": "spell", "829": "In", "830": "once", "831": "sider", "832": "sud", "833": "sudden", "834": "suddenly", "835": "pping", "836": "well", "837": "walked", "838": "wonder", "839": "ison", "840": "vent", "841": "ust", "842": "butter", "843": "So", "844": "car", "845": "ction", "846": "Alice\u2019s", "847": "Foot", "848": "olden", "849": "hurried", "850": "gard", "851": "wat", "852": "bled", "853": "bir", "854": "dr", "855": "ling", "856": "tab", "857": "Lor", "858": "has", "859": "speak", "860": "anything", "861": "ive", "862": "idea", "863": "uck", "864": "actly", "865": "ie", "866": "herself,", "867": "Mouse", "868": "sur", "869": "qui", "870": "er.", "871": "quest", "872": "question", "873": "room", "874": "again,", "875": "toge", "876": "together", "877": "heard", "878": "dis", "879": "puz", "880": "puzz", "881": "reas", "882": "ing,", "883": "ert", "884": "sw", "885": "cont", "886": "You\u2019", "887": "und", "888": "under", "889": "talking", "890": "rather", "891": "large", "892": "hin", "893": "may", "894": "happen", "895": "agon", "896": "te", "897": "does", "898": "appear", "899": "wasn\u2019t", "900": "without", "901": "gl", "902": "glad", "903": "iting", "904": "interr", "905": "interrup", "906": "That\u2019s", "907": "King,", "908": "else.", "909": "Ma", "910": "Maj", "911": "Majest", "912": "Majesty", "913": "Rabbit", "914": "execution", "915": "bst", "916": "cre", "917": "Ex", "918": "sl", "919": "Bea", "920": "utiful", "921": "year", "922": "fri", "923": "friend", "924": "master", "925": "pet", "926": "Sly", "927": "Slyther", "928": "Hall", "929": "val", "930": "kill", "931": "Voldemort.", "932": "pow", "933": "father", "934": "oen", "935": "oeni", "936": "oenix", "937": "Ph", "938": "cked", "939": "sad", "940": "wondering", "941": "sort", "942": "ffe", "943": "finished", "944": "must", "945": "fun", "946": "pres", "947": "against", "948": "than", "949": "high", "950": "garden", "951": "cro", "952": "tail", "953": "ank", "954": "clo", "955": "le.", "956": "hasti", "957": "ng", "958": "Dodo", "959": "des", "960": "exactly", "961": "pie", "962": "piece", "963": "grave", "964": "thim", "965": "cr", "966": "while", "967": "bowed", "968": "ised", "969": "angri", "970": "grow", "971": "come", "972": "please", "973": "making", "974": "conver", "975": "convers", "976": "conversation", "977": "stopped", "978": "This", "979": "opp", "980": "ity", "981": "till", "982": "ark", "983": "ounded", "984": "mou", "985": "mouth", "986": "Here", "987": "cert", "988": "certain", "989": "certainly", "990": "tem", "991": "remem", "992": "remember", "993": "I\u2019ve", "994": "sing", "995": "aring", "996": "foot", "997": "you\u2019", "998": "ed,\u201d", "999": "umber", "1000": "both", "1001": "ug", "1002": "this,", "1003": "Footman", "1004": "tre", "1005": "behin", "1006": "behind", "1007": "same", "1008": "tone.", "1009": "saw", "1010": "many", "1011": "doesn\u2019t", "1012": "peo", "1013": "people", "1014": "remarked.", "1015": "ace", "1016": "All", "1017": "Come", "1018": "that,\u201d", "1019": "it?\u201d", "1020": "on.", "1021": "Hatter,", "1022": "asi", "1023": "remark", "1024": "light", "1025": "twink", "1026": "reason", "1027": "keep", "1028": "alway", "1029": "always", "1030": "No", "1031": "tri", "1032": "conf", "1033": "poor", "1034": "curious", "1035": "chan", "1036": "proce", "1037": "her,", "1038": "ons", "1039": "loud", "1040": "voice,", "1041": "yal", "1042": "childr", "1043": "children", "1044": "sold", "1045": "soldi", "1046": "soldiers", "1047": "shout", "1048": "shouted", "1049": "White", "1050": "executioner", "1051": "my", "1052": "repeated", "1053": "game", "1054": "Pr", "1055": "ener", "1056": "wa", "1057": "interrupted", "1058": "creature", "1059": "face", "1060": "lobst", "1061": "Ch", "1062": "sho", "1063": "spectacle", "1064": "slat", "1065": "rid", "1066": "ft", "1067": "ful", "1068": "een", "1069": "Potter", "1070": "chool", "1071": "form", "1072": "house.", "1073": "Sn", "1074": "danger", "1075": "dangerous", "1076": "magical", "1077": "idden", "1078": "tor", "1079": "valued", "1080": "abo", "1081": "above", "1082": "power", "1083": "Eat", "1084": "fam", "1085": "family", "1086": "beca", "1087": "because", "1088": "cret", "1089": "Pat", "1090": "Patron", "1091": "Stone", "1092": "Eld", "1093": "Elder", "1094": "Wand", "1095": "consider", "1096": "world", "1097": "other,", "1098": "door,", "1099": "ventur", "1100": "ventured", "1101": "fact", "1102": "e,", "1103": "hot", "1104": "soon", "1105": "off.", "1106": "work", "1107": "plan", "1108": "ning", "1109": "manage", "1110": "\u201cand", "1111": "nine", "1112": "golden", "1113": "Po", "1114": "thr", "1115": "through", "1116": "less", "1117": "On", "1118": "inde", "1119": "indeed", "1120": "er-", "1121": "part", "1122": "bird", "1123": "ather", "1124": "close", "1125": "them,", "1126": "comfor", "1127": "comfortab", "1128": "Not", "1129": "hastily.", "1130": "let", "1131": "meaning", "1132": "ose", "1133": "beli", "1134": "belie", "1135": "believe", "1136": "mile", "1137": "ined", "1138": "pri", "1139": "priz", "1140": "orus", "1141": "poc", "1142": "pocke", "1143": "pocket", "1144": "luck", "1145": "know,\u201d", "1146": "Of", "1147": "course", "1148": "replied", "1149": "\u201cWhat", "1150": "sole", "1151": "solem", "1152": "solemn", "1153": "cep", "1154": "whole", "1155": "could.", "1156": "prom", "1157": "e\u2014", "1158": "shar", "1159": "sharp", "1160": "reply.", "1161": "Yes,", "1162": "ask", "1163": "effe", "1164": "effect", "1165": "en.", "1166": "ran", "1167": "sounded", "1168": "last", "1169": "ssed", "1170": "sle", "1171": "sleep", "1172": "temper", "1173": "Well", "1174": "Well,", "1175": "e,\u201d", "1176": "dif", "1177": "diff", "1178": "differ", "1179": "different", "1180": ",\u2019", "1181": ",\u2019\u201d", "1182": "wrong", "1183": "cted", "1184": "Are", "1185": "itself", "1186": "herself.", "1187": "sight", "1188": "puzzled", "1189": "number", "1190": "low,", "1191": "ground", "1192": "tim", "1193": "timid", "1194": "op", "1195": "out,", "1196": "nose", "1197": "bro", "1198": "contin", "1199": "continued", "1200": "tone,", "1201": "Oh,", "1202": "pepp", "1203": "ez", "1204": "feel", "1205": "jum", "1206": "jump", "1207": "nat", "1208": "natur", "1209": "claw", "1210": "Cat.", "1211": "matter", "1212": "pur", "1213": "Cat,", "1214": "van", "1215": "vanis", "1216": "vanished", "1217": "appeared", "1218": "pig", "1219": "quiet", "1220": "fig", "1221": "rem", "1222": "isn\u2019t", "1223": "ci", "1224": "it,\u201d", "1225": "being", "1226": "curio", "1227": "curiosit", "1228": "shall", "1229": "\u201cI\u2019m", "1230": "begun", "1231": "guess", "1232": "answ", "1233": "answer", "1234": "you,\u201d", "1235": "dro", "1236": "silent", "1237": "ence.", "1238": "tak", "1239": "Tw", "1240": "told", "1241": "replied.", "1242": "cas", "1243": "make", "1244": "mov", "1245": "sup", "1246": "one,\u201d", "1247": "ake", "1248": "up,", "1249": "ched", "1250": "once.", "1251": "Tell", "1252": "lived", "1253": "acle,\u201d", "1254": "Dormouse,", "1255": "tea,\u201d", "1256": "pers", "1257": "Why", "1258": "ced", "1259": "stoo", "1260": "process", "1261": "procession", "1262": "inst", "1263": "heads", "1264": "prote", "1265": "ev", "1266": "anxiously", "1267": "enough", "1268": "going", "1269": "spoke.", "1270": "eag", "1271": "eager", "1272": "arg", "1273": "argum", "1274": "hard", "1275": "was,", "1276": "such", "1277": "prison", "1278": ".\u201d", "1279": "row", "1280": "met", "1281": "fo", "1282": "foll", "1283": "sts", "1284": "liv", "1285": "gener", "1286": "that\u2019s", "1287": "Turtle,", "1288": "change", "1289": "bj", "1290": "bje", "1291": "bject", "1292": "lobsters", "1293": "air", "1294": "ned", "1295": "shoes", "1296": "plain", "1297": "repeat", "1298": "St", "1299": "posit", "1300": "evening,", "1301": "bea", "1302": "beautiful", "1303": "Soup!", "1304": "Beau", "1305": "Soo", "1306": "Soo\u2014", "1307": "Soo\u2014oo", "1308": "Soo\u2014oop", "1309": "ront", "1310": "verdi", "1311": "verdict", "1312": "verdict,\u201d", "1313": "court,", "1314": "down,\u201d", "1315": "jury,", "1316": "wrote", "1317": "slates,", "1318": "witn", "1319": "witness", "1320": "ry.", "1321": "If", "1322": "cook", "1323": "jurym", "1324": "important\u2014", "1325": "true", "1326": "returned", "1327": "fit", "1328": "betw", "1329": "between", "1330": "Pri", "1331": "Hag", "1332": "Hagrid", "1333": "Sort", "1334": "Sorting", "1335": "Hat", "1336": "plac", "1337": "placed", "1338": "seek", "1339": "seeker", "1340": "ench", "1341": "enchant", "1342": "Al", "1343": "Albus", "1344": "Dum", "1345": "Dumbled", "1346": "Dumbledore", "1347": "ape", "1348": "ught", "1349": "Potion", "1350": "az", "1351": "dur", "1352": "during", "1353": "mat", "1354": "most", "1355": "showed", "1356": "Slytherin", "1357": "Hu", "1358": "loyal", "1359": "dark", "1360": "wizards", "1361": "killed", "1362": "par", "1363": "parents", "1364": "mother", "1365": "powerful", "1366": "Malf", "1367": "Malfo", "1368": "Malfoy", "1369": "Ginn", "1370": "gle", "1371": "wizarding", "1372": "Di", "1373": "Diagon", "1374": "hidden", "1375": "phoenix", "1376": "Marau", "1377": "Maraud", "1378": "Marauders", "1379": "Map", "1380": "Dem", "1381": "Demen", "1382": "Dementor", "1383": "ori", "1384": "Patronus", "1385": "charm", "1386": "cant", "1387": "lix", "1388": "Phil", "1389": "Philo", "1390": "Philoso", "1391": "Philosop", "1392": "Philosopher", "1393": "Li", "1394": "Basi", "1395": "Basili", "1396": "Basilisk", "1397": "bat", "1398": "Tri", "1399": "Triwizard", "1400": "Tour", "1401": "Tournam", "1402": "Tournament", "1403": "vi", "1404": "Deathly", "1405": "Hallow", "1406": "defe", "1407": "considering", "1408": "ho", "1409": "stra", "1410": "straight", "1411": "tun", "1412": "way,", "1413": "down,", "1414": "found", "1415": "fall", "1416": "deep", "1417": "hall", "1418": "trying", "1419": "sadly", "1420": "ever,", "1421": "bot", "1422": "bottle", "1423": "finding", "1424": "ice,", "1425": "(it", "1426": "tart", "1427": "er,\u201d", "1428": "ny", "1429": "ending", "1430": "presents", "1431": "feet", "1432": "dire", "1433": "will", "1434": "love", "1435": ").", "1436": "Just", "1437": "stru", "1438": "struck", "1439": "key", "1440": "door.", "1441": "do,", "1442": "side,", "1443": "eye", "1444": "cry", "1445": "doth", "1446": "co", "1447": "ining", "1448": "tail,", "1449": "pour", "1450": "ile", "1451": "party", "1452": "bank", "1453": "birds", "1454": "feather", "1455": "als", "1456": "dri", "1457": "uncomfortab", "1458": "Eng", "1459": "Engli", "1460": "English", "1461": "Eag", "1462": "Eaglet", "1463": "more,", "1464": "ither", "1465": "hid", "1466": "Cau", "1467": "cus", "1468": "Alice;", "1469": "wanted", "1470": "cl", "1471": "give", "1472": "chorus", "1473": "pocket,", "1474": "box", "1475": "fits", "1476": "fits,", "1477": "course,\u201d", "1478": "Only", "1479": "thimble", "1480": "here,\u201d", "1481": "present", "1482": "thimb", "1483": "thimble,", "1484": "saying", "1485": "accep", "1486": "ele", "1487": "spee", "1488": "speech", "1489": "cheer", "1490": "d,", "1491": "tell", "1492": "whis", "1493": "afra", "1494": "afraid", "1495": "offend", "1496": "offended", "1497": "Mouse,", "1498": "sigh", "1499": "angrily.", "1500": "finish", "1501": "story", "1502": "story!\u201d", "1503": "others", "1504": "jo", "1505": "joined", "1506": "shook", "1507": "ati", "1508": "atient", "1509": "might", "1510": "venture", "1511": "gre", "1512": "still", "1513": "chance", "1514": "unhapp", "1515": "taking", "1516": "minutes", "1517": "list", "1518": "did,", "1519": "others.", "1520": "esca", "1521": "escape", "1522": "once,", "1523": "dist", "1524": "distan", "1525": "distance.", "1526": "silence", "1527": "hook", "1528": "hooka", "1529": "hookah", "1530": "sleepy", "1531": "bit,\u201d", "1532": "pleasant", "1533": "away", "1534": "promis", "1535": "Is", "1536": "owing", "1537": "an\u2019t", "1538": "tried", "1539": "different!\u201d", "1540": "cho", "1541": "Re", "1542": "right,\u201d", "1543": "dec", "1544": "decid", "1545": "decided", "1546": "decidedly,", "1547": "minutes.", "1548": "life", "1549": "before,", "1550": "now?\u201d", "1551": "ches", "1552": "You\u2019ll", "1553": "time,\u201d", "1554": "One", "1555": "what?\u201d", "1556": "aloud", "1557": "ib", "1558": "haven", "1559": "haven\u2019t", "1560": "you\u2019re", "1561": "puzzled,", "1562": "fully,", "1563": "chang", "1564": "together.", "1565": "laug", "1566": "laughed", "1567": "run", "1568": "fear", "1569": "peep", "1570": "ish", "1571": "gone,", "1572": "staring", "1573": "upid", "1574": "open", "1575": "imm", "1576": "trees", "1577": "day,", "1578": "be,\u201d", "1579": "there\u2019s", "1580": "ately", "1581": "pepper", "1582": "sne", "1583": "sneez", "1584": "pol", "1585": "polite", "1586": "feeling", "1587": "pleased", "1588": "jumping", "1589": "goes", "1590": "fle", "1591": "flew", "1592": "carried", "1593": "respect", "1594": "care", "1595": "go,\u201d", "1596": "surpr", "1597": "place", "1598": "quietly", "1599": "natural", "1600": "Did", "1601": "slow", "1602": "in,", "1603": "remain", "1604": "rest", "1605": "Have", "1606": "wine", "1607": "wine,\u201d", "1608": "encour", "1609": "civ", "1610": "civil", "1611": "vit", "1612": "Come,", "1613": "we", "1614": "ridd", "1615": "riddle", "1616": "mean,\u201d", "1617": "writing", "1618": "bre", "1619": "break", "1620": "silence.", "1621": "month", "1622": "taken", "1623": "watch", "1624": "une", "1625": "Two", "1626": "best", "1627": "mine,\u201d", "1628": "dread", "1629": "dreadfull", "1630": "dreadfully", "1631": "yet", "1632": "stand", "1633": "asleep", "1634": "upon", "1635": "guessed", "1636": "something", "1637": "itself,", "1638": "twinkle,", "1639": "pin", "1640": "moving", "1641": "round,", "1642": "pose", "1643": "again?\u201d", "1644": "\u201cW", "1645": "live", "1646": "on?\u201d", "1647": "inking", "1648": "minute", "1649": "Take", "1650": "Nobody", "1651": "person", "1652": "trium", "1653": "triumph", "1654": "triumphant", "1655": "Tre", "1656": "Treacle,\u201d", "1657": "time.", "1658": "remark.", "1659": "talk", "1660": "iced", "1661": "thing\u2019s", "1662": "none", "1663": "busin", "1664": "Seven", "1665": "rush", "1666": "stood", "1667": "checked", "1668": "himself", "1669": "so,", "1670": "Kn", "1671": "Knave", "1672": "sm", "1673": "onsen", "1674": "onsense", "1675": "rill", "1676": "gardeners", "1677": "instant", "1678": "instantly", "1679": "everybody", "1680": "Off", "1681": "protection", "1682": "behead", "1683": "two,", "1684": "Majesty!\u201d", "1685": "evid", "1686": "her.", "1687": "fine", "1688": "side.", "1689": "\u2019?\u201d", "1690": "to?\u201d", "1691": "curiosity.", "1692": "I\u2019d", "1693": "Don", "1694": "Don\u2019t", "1695": "that!\u201d", "1696": "fet", "1697": "fetch", "1698": "aled", "1699": "though", "1700": "said.", "1701": "argument", "1702": "can\u2019t", "1703": "dear", "1704": "thing!\u201d", "1705": "hap", "1706": "haps", "1707": "ut,", "1708": "mor", "1709": "al,", "1710": "ser", "1711": "bet", "1712": "better", "1713": "things!\u201d", "1714": "replied,", "1715": "exper", "1716": "think,\u201d", "1717": "birth", "1718": "dig", "1719": "eak", "1720": "Let", "1721": "followed", "1722": "one,", "1723": "order", "1724": "eyes", "1725": "led.", "1726": "tear", "1727": "begin.", "1728": "begin.\u201d", "1729": "didn\u2019t", "1730": "didn\u2019t!\u201d", "1731": "did,\u201d", "1732": "Hold", "1733": "tong", "1734": "tongue", "1735": "tongue!\u201d", "1736": "wash", "1737": "creatures", "1738": "faces", "1739": "subject", "1740": "subject.", "1741": "excla", "1742": "exclaim", "1743": "was,\u201d", "1744": "twel", "1745": "sea", "1746": "again!\u201d", "1747": "top", "1748": "ty", "1749": "Would", "1750": "You\u2019re", "1751": "crum", "1752": "crumb", "1753": "crumbs", "1754": "aw", "1755": "shut", "1756": "eyes.", "1757": "boot", "1758": "boots", "1759": "thor", "1760": "really", "1761": "explain", "1762": "position", "1763": "so.", "1764": "Beautiful", "1765": "Beau\u2014", "1766": "Beau\u2014oot", "1767": "Beau\u2014ootiful", "1768": "Soo\u2014oop!", "1769": "trial", "1770": "hand,", "1771": "waiting", "1772": "wore", "1773": "wig", "1774": "front", "1775": "Con", "1776": "Consider", "1777": "jury.", "1778": "Dormouse.", "1779": "confus", "1780": "confusion", "1781": "teac", "1782": "teacup", "1783": "bread", "1784": "bread-", "1785": "bread-and", "1786": "bread-and-", "1787": "bread-and-butter", "1788": "able", "1789": "fas", "1790": "deny", "1791": "kne", "1792": "press", "1793": "ers.", "1794": "left", "1795": "take", "1796": "offic", "1797": "cook.", "1798": "For", "1799": "\u201cun", "1800": "important,\u201d", "1801": "important\u2014un", "1802": "high,\u201d", "1803": "book", "1804": "jurymen.", "1805": "cle", "1806": "spectacles.", "1807": "ment", "1808": "Be", "1809": "cup", "1810": "board", "1811": "stair", "1812": "four", "1813": "School", "1814": "Witch", "1815": "Witchc", "1816": "Witchcra", "1817": "Witchcraft", "1818": "Wizard", "1819": "Wizardry.", "1820": "plat", "1821": "platform", "1822": "quar", "1823": "quarter", "1824": "quarters.", "1825": "train", "1826": "Gr", "1827": "play", "1828": "loved", "1829": "enchanted", "1830": "witch", "1831": "ster", "1832": "headmaster", "1833": "Prof", "1834": "Profess", "1835": "Professor", "1836": "Snape", "1837": "taught", "1838": "ass", "1839": "Mc", "1840": "McG", "1841": "McGon", "1842": "McGonag", "1843": "McGonagall", "1844": "home", "1845": "cat", "1846": "Golden", "1847": "Snitch", "1848": "match", "1849": "Slytherin.", "1850": "common", "1851": "loc", "1852": "located", "1853": "reg", "1854": "Great", "1855": "Ra", "1856": "Raven", "1857": "Ravenclaw", "1858": "Huff", "1859": "Huffle", "1860": "Hufflepu", "1861": "Hufflepuff", "1862": "Lord", "1863": "sac", "1864": "sacri", "1865": "sacrif", "1866": "scar", "1867": "att", "1868": "attack", "1869": "Eaters", "1870": "Dr", "1871": "Drac", "1872": "Draco", "1873": "bloo", "1874": "blood", "1875": "age.", "1876": "kn", "1877": "known", "1878": "brother", "1879": "brothers", "1880": "young", "1881": "Ginny", "1882": "Bur", "1883": "Burrow", "1884": "name", "1885": "one.", "1886": "mug", "1887": "muggle", "1888": "Min", "1889": "Minis", "1890": "Ministry", "1891": "Magic", "1892": "rit", "1893": "Lon", "1894": "London", "1895": "London.", "1896": "bought", "1897": "Ol", "1898": "Olliv", "1899": "Ollivand", "1900": "Alle", "1901": "Alley.", "1902": "wands", "1903": "port", "1904": "secret", "1905": "friends.", "1906": "Jame", "1907": "James", "1908": "stag", "1909": "stag.", "1910": "Si", "1911": "Siri", "1912": "Sirius", "1913": "Bl", "1914": "Black", "1915": "Az", "1916": "Azk", "1917": "Azkab", "1918": "Azkaban", "1919": "terri", "1920": "terrible", "1921": "Dementors", "1922": "cast", "1923": "Expe", "1924": "oppon", "1925": "opponent", "1926": "Poly", "1927": "Polyju", "1928": "Polyjuice", "1929": "comple", "1930": "Fe", "1931": "Elix", "1932": "Elixir", "1933": "Life", "1934": "whoever", "1935": "Mir", "1936": "Mirr", "1937": "Mirror", "1938": "Er", "1939": "Erised", "1940": "ire", "1941": "Cham", "1942": "Chamber", "1943": "Se", "1944": "Secret", "1945": "Secrets", "1946": "battle", "1947": "school", "1948": "Or", "1949": "Order", "1950": "Phoenix", "1951": "fight", "1952": "survi", "1953": "Priori", "1954": "Incant", "1955": "Incantat", "1956": "Incantatem", "1957": "gho", "1958": "ghosts", "1959": "Wand.", "1960": "Hallows", "1961": "defeated", "1962": "peace", "1963": "finally", "1964": "married", "1965": "rabbit", "1966": "rabbit-", "1967": "rabbit-ho", "1968": "rabbit-hole", "1969": "tunne", "1970": "tunnel", "1971": "dipped", "1972": "stopping", "1973": "falling", "1974": "well.", "1975": "doors", "1976": "hall,", "1977": "locked", "1978": "locked;", "1979": "midd", "1980": "middle,", "1981": "However,", "1982": "marked", "1983": "\u201cpo", "1984": "\u201cpoison", "1985": "\u201cpoison,\u201d", "1986": "tast", "1987": "taste", "1988": "nice,", "1989": "had,", "1990": "fact,", "1991": "mix", "1992": "mixed", "1993": "fla", "1994": "flav", "1995": "flavour", "1996": "cher", "1997": "cherry", "1998": "cherry-", "1999": "cherry-tart"}}